1F
1E
03
1B
07
1D
05
1A
19
02
1C
06
17
04
18
09
16
08
15
0A
1D
07
1B
0B
1A
05
1E
04
19
09
18
06
1F
1E
03
1B
07
1D
05
1A
19
02
1C
06
17
04
18
09
16
08
15
0A
1D
07
1B
0B
1A
05
1E
04
19
09
18
06
1F
1E
03
1B
07
1D
05
1A
19
02
1C
06
17
04
18
09
16
08
15
0A
1D
07
1B
0B
1A
05
1E
04
19
09
18
06
1F
1E
03
1B
07
1D
05
1A
19
02
1C
06
17
04
18
09
16
08
15
0A
1D
07
1B
0B
1A
05
1E
04
19
09
18
06
1F
1E
03
1B
07
1D
05
1A
19
02
1C
06
17
04
18
09
16
08
15
0A
1D
07
1B
0B
1A
05
1E
04
19
09
18
06
1F
1E
03
1B
07
1D
05
1A
19
02
1C
06
17
04
18
09
16
08
15
0A
1D
07
1B
0B
1A
05
1E
04
19
09
18
06
1F
1E
03
1B
07
1D
05
1A
19
02
1C
06
17
04
18
09
16
08
15
0A
1D
07
1B
0B
1A
05
1E
04
19
09
18
06
1F
1E
03
1B
07
1D
05
1A
19
02
1C
06
17
04
18
09
16
08
15
0A
1D
07
1B
0B
1A
05
1E
04
19
09
18
06
1F
1E
03
1B
07
1D
05
1A
19
02
1C
06
17
04
18
09
16
08
15
0A
1D
07
1B
0B
1A
05
1E
04
19
09
18
06

