01
02
1D
05
19
03
1B
06
07
1E
04
1A
09
1C
08
17
01
02
1D
05
19
03
1B
06
07
1E
04
1A
09
1C
08
17
01
02
1D
05
19
03
1B
06
07
1E
04
1A
09
1C
08
17
01
02
1D
05
19
03
1B
06
07
1E
04
1A
09
1C
08
17
01
02
1D
05
19
03
1B
06
07
1E
04
1A
09
1C
08
17
01
02
1D
05
19
03
1B
06
07
1E
04
1A
09
1C
08
17
01
02
1D
05
19
03
1B
06
07
1E
04
1A
09
1C
08
17
01
02
1D
05
19
03
1B
06
07
1E
04
1A
09
1C
08
17
01
02
1D
05
19
03
1B
06
07
1E
04
1A
09
1C
08
17

