01
02
1D
05
19
03
1B
06
07
1E
04
1A
09
1C
08
17
0A
18
0B
16
03
19
05
15
06
1B
02
1C
07
17
08
1A
1F
1E
03
1B
07
1D
05
1A
19
02
1C
06
17
04
18
09
16
08
15
0A
1D
07
1B
0B
1A
05
1E
04
19
09
18
06
01
02
1D
05
19
03
1B
06
07
1E
04
1A
09
1C
08
17
0A
18
0B
16
03
19
05
15
06
1B
02
1C
07
17
08
1A
1F
1E
03
1B
07
1D
05
1A
19
02
1C
06
17
04
18
09
16
08
15
0A
1D
07
1B
0B
1A
05
1E
04
19
09
18
06
01
02
1D
05
19
03
1B
06
07
1E
04
1A
09
1C
08
17
0A
18
0B
16
03
19
05
15
06
1B
02
1C
07
17
08
1A
1F
1E
03
1B
07
1D
05
1A
19
02
1C
06
17
04
18
09
16
08
15
0A
1D
07
1B
0B
1A
05
1E
04
19
09
18
06
01
02
1D
05
19
03
1B
06
07
1E
04
1A
09
1C
08
17
0A
18
0B
16
03
19
05
15
06
1B
02
1C
07
17
08
1A
1F
1E
03
1B
07
1D
05
1A
19
02
1C
06
17
04
18
09
16
08
15
0A
1D
07
1B
0B
1A
05
1E
04
19
09
18
06
01
02
1D
05
19
03
1B
06
07
1E
04
1A
09
1C
08
17
0A
18
0B
16
03
19
05
15
06
1B
02
1C
07
17
08
1A
1F
1E
03
1B
07
1D
05
1A
19
02
1C
06
17
04
18
09
16
08
15
0A
1D
07
1B
0B
1A
05
1E
04
19
09
18
06
01
02
1D
05
19
03
1B
06
07
1E
04
1A
09
1C
08
17
0A
18
0B
16
03
19
05
15
06
1B
02
1C
07
17
08
1A
1F
1E
03
1B
07
1D
05
1A
19
02
1C
06
17
04
18
09
16
08
15
0A
1D
07
1B
0B
1A
05
1E
04
19
09
18
06
01
02
1D
05
19
03
1B
06
07
1E
04
1A
09
1C
08
17
0A
18
0B
16
03
19
05
15
06
1B
02
1C
07
17
08
1A
1F
1E
03
1B
07
1D
05
1A
19
02
1C
06
17
04
18
09
16
08
15
0A
1D
07
1B
0B
1A
05
1E
04
19
09
18
06
01
02
1D
05
19
03
1B
06
07
1E
04
1A
09
1C
08
17
0A
18
0B
16
03
19
05
15
06
1B
02
1C
07
17
08
1A
1F
1E
03
1B
07
1D
05
1A
19
02
1C
06
17
04
18
09
16
08
15
0A
1D
07
1B
0B
1A
05
1E
04
19
09
18
06
01
02
1D
05
19
03
1B
06
07
1E
04
1A
09
1C
08
17
0A
18
0B
16
03
19
05
15
06
1B
02
1C
07
17
08
1A
1F
1E
03
1B
07
1D
05
1A
19
02
1C
06
17
04
18
09
16
08
15
0A
1D
07
1B
0B
1A
05
1E
04
19
09
18
06
01
02
1D
05
19
03
1B
06
07
1E
04
1A
09
1C
08
17
0A
18
0B
16
03
19
05
15
06
1B
02
1C
07
17
08
1A
1F
1E
03
1B
07
1D
05
1A
19
02
1C
06
17
04
18
09
16
08
15
0A
1D
07
1B
0B
1A
05
1E
04
19
09
18
06
01
02
1D
05
19
03
1B
06
07
1E
04
1A
09
1C
08
17
0A
18
0B
16
03
19
05
15
06
1B
02
1C
07
17
08
1A
1F
1E
03
1B
07
1D
05
1A
19
02
1C
06
17
04
18
09
16
08
15
0A
1D
07
1B
0B
1A
05
1E
04
19
09
18
06
01
02
1D
05
19
03
1B
06
07
1E
04
1A
09
1C
08
17
0A
18
0B
16
03
19
05
15
06
1B
02
1C
07
17
08
1A
1F
1E
03
1B
07
1D
05
1A
19
02
1C
06
17
04
18
09
16
08
15
0A
1D
07
1B
0B
1A
05
1E
04
19
09
18
06
01
02
1D
05
19
03
1B
06
07
1E
04
1A
09
1C
08
17
0A
18
0B
16
03
19
05
15
06
1B
02
1C
07
17
08
1A
1F
1E
03
1B
07
1D
05
1A
19
02
1C
06
17
04
18
09
16
08
15
0A
1D
07
1B
0B
1A
05
1E
04
19
09
18
06
01
02
1D
05
19
03
1B
06
07
1E
04
1A
09
1C
08
17
0A
18
0B
16
03
19
05
15
06
1B
02
1C
07
17
08
1A
1F
1E
03
1B
07
1D
05
1A
19
02
1C
06
17
04
18
09
16
08
15
0A
1D
07
1B
0B
1A
05
1E
04
19
09
18
06
01
02
1D
05
19
03
1B
06
07
1E
04
1A
09
1C
08
17
0A
18
0B
16
03
19
05
15
06
1B
02
1C
07
17
08
1A
1F
1E
03
1B
07
1D
05
1A
19
02
1C
06
17
04
18
09
16
08
15
0A
1D
07
1B
0B
1A
05
1E
04
19
09
18
06
01
02
1D
05
19
03
1B
06
07
1E
04
1A
09
1C
08
17
0A
18
0B
16
03
19
05
15
06
1B
02
1C
07
17
08
1A
1F
1E
03
1B
07
1D
05
1A
19
02
1C
06
17
04
18
09
16
08
15
0A
1D
07
1B
0B
1A
05
1E
04
19
09
18
06
01
02
1D
05
19
03
1B
06
07
1E
04
1A
09
1C
08
17
0A
18
0B
16
03
19
05
15
06
1B
02
1C
07
17
08
1A
1F
1E
03
1B
07
1D
05
1A
19
02
1C
06
17
04
18
09
16
08
15
0A
1D
07
1B
0B
1A
05
1E
04
19
09
18
06
01
02
1D
05
19
03
1B
06
07
1E
04
1A
09
1C
08
17
0A
18
0B
16
03
19
05
15
06
1B
02
1C
07
17
08
1A
1F
1E
03
1B
07
1D
05
1A
19
02
1C
06
17
04
18
09
16
08
15
0A
1D
07
1B
0B
1A
05
1E
04
19
09
18
06
01
02
1D
05
19
03
1B
06
07
1E
04
1A
09
1C
08
17
0A
18
0B
16
03
19
05
15
06
1B
02
1C
07
17
08
1A
1F
1E
03
1B
07
1D
05
1A
19
02
1C
06
17
04
18
09
16
08
15
0A
1D
07
1B
0B
1A
05
1E
04
19
09
18
06
01
02
1D
05
19
03
1B
06
07
1E
04
1A
09
1C
08
17
0A
18
0B
16
03
19
05
15
06
1B
02
1C
07
17
08
1A
1F
1E
03
1B
07
1D
05
1A
19
02
1C
06
17
04
18
09
16
08
15
0A
1D
07
1B
0B
1A
05
1E
04
19
09
18
06
01
02
1D
05
19
03
1B
06
07
1E
04
1A
09
1C
08
17
0A
18
0B
16
03
19
05
15
06
1B
02
1C
07
17
08
1A
1F
1E
03
1B
07
1D
05
1A
19
02
1C
06
17
04
18
09
16
08
15
0A
1D
07
1B
0B
1A
05
1E
04
19
09
18
06
01
02
1D
05
19
03
1B
06
07
1E
04
1A
09
1C
08
17
0A
18
0B
16
03
19
05
15
06
1B
02
1C
07
17
08
1A
1F
1E
03
1B
07
1D
05
1A
19
02
1C
06
17
04
18
09
16
08
15
0A
1D
07
1B
0B
1A
05
1E
04
19
09
18
06
01
02
1D
05
19
03
1B
06
07
1E
04
1A
09
1C
08
17
0A
18
0B
16
03
19
05
15
06
1B
02
1C
07
17
08
1A
1F
1E
03
1B
07
1D
05
1A
19
02
1C
06
17
04
18
09
16
08
15
0A
1D
07
1B
0B
1A
05
1E
04
19
09
18
06
01
02
1D
05
19
03
1B
06
07
1E
04
1A
09
1C
08
17
0A
18
0B
16
03
19
05
15
06
1B
02
1C
07
17
08
1A
1F
1E
03
1B
07
1D
05
1A
19
02
1C
06
17
04
18
09
16
08
15
0A
1D
07
1B
0B
1A
05
1E
04
19
09
18
06
01
02
1D
05
19
03
1B
06
07
1E
04
1A
09
1C
08
17
0A
18
0B
16
03
19
05
15
06
1B
02
1C
07
17
08
1A
1F
1E
03
1B
07
1D
05
1A
19
02
1C
06
17
04
18
09
16
08
15
0A
1D
07
1B
0B
1A
05
1E
04
19
09
18
06
01
02
1D
05
19
03
1B
06
07
1E
04
1A
09
1C
08
17
0A
18
0B
16
03
19
05
15
06
1B
02
1C
07
17
08
1A
1F
1E
03
1B
07
1D
05
1A
19
02
1C
06
17
04
18
09
16
08
15
0A
1D
07
1B
0B
1A
05
1E
04
19
09
18
06
01
02
1D
05
19
03
1B
06
07
1E
04
1A
09
1C
08
17
0A
18
0B
16
03
19
05
15
06
1B
02
1C
07
17
08
1A
1F
1E
03
1B
07
1D
05
1A
19
02
1C
06
17
04
18
09
16
08
15
0A
1D
07
1B
0B
1A
05
1E
04
19
09
18
06
01
02
1D
05
19
03
1B
06
07
1E
04
1A
09
1C
08
17
0A
18
0B
16
03
19
05
15
06
1B
02
1C
07
17
08
1A
1F
1E
03
1B
07
1D
05
1A
19
02
1C
06
17
04
18
09
16
08
15
0A
1D
07
1B
0B
1A
05
1E
04
19
09
18
06
01
02
1D
05
19
03
1B
06
07
1E
04
1A
09
1C
08
17
0A
18
0B
16
03
19
05
15
06
1B
02
1C
07
17
08
1A
1F
1E
03
1B
07
1D
05
1A
19
02
1C
06
17
04
18
09
16
08
15
0A
1D
07
1B
0B
1A
05
1E
04
19
09
18
06
01
02
1D
05
19
03
1B
06
07
1E
04
1A
09
1C
08
17
0A
18
0B
16
03
19
05
15
06
1B
02
1C
07
17
08
1A
1F
1E
03
1B
07
1D
05
1A
19
02
1C
06
17
04
18
09
16
08
15
0A
1D
07
1B
0B
1A
05
1E
04
19
09
18
06
01
02
1D
05
19
03
1B
06
07
1E
04
1A
09
1C
08
17
0A
18
0B
16
03
19
05
15
06
1B
02
1C
07
17
08
1A
1F
1E
03
1B
07
1D
05
1A
19
02
1C
06
17
04
18
09
16
08
15
0A
1D
07
1B
0B
1A
05
1E
04
19
09
18
06
01
02
1D
05
19
03
1B
06
07
1E
04
1A
09
1C
08
17
0A
18
0B
16
03
19
05
15
06
1B
02
1C
07
17
08
1A
1F
1E
03
1B
07
1D
05
1A
19
02
1C
06
17
04
18
09
16
08
15
0A
1D
07
1B
0B
1A
05
1E
04
19
09
18
06
01
02
1D
05
19
03
1B
06
07
1E
04
1A
09
1C
08
17
0A
18
0B
16
03
19
05
15
06
1B
02
1C
07
17
08
1A
1F
1E
03
1B
07
1D
05
1A
19
02
1C
06
17
04
18
09
16
08
15
0A
1D
07
1B
0B
1A
05
1E
04
19
09
18
06
01
02
1D
05
19
03
1B
06
07
1E
04
1A
09
1C
08
17
0A
18
0B
16
03
19
05
15
06
1B
02
1C
07
17
08
1A
1F
1E
03
1B
07
1D
05
1A
19
02
1C
06
17
04
18
09
16
08
15
0A
1D
07
1B
0B
1A
05
1E
04
19
09
18
06
01
02
1D
05
19
03
1B
06
07
1E
04
1A
09
1C
08
17
0A
18
0B
16
03
19
05
15
06
1B
02
1C
07
17
08
1A
1F
1E
03
1B
07
1D
05
1A
19
02
1C
06
17
04
18
09
16
08
15
0A
1D
07
1B
0B
1A
05
1E
04
19
09
18
06
01
02
1D
05
19
03
1B
06
07
1E
04
1A
09
1C
08
17
0A
18
0B
16
03
19
05
15
06
1B
02
1C
07
17
08
1A
1F
1E
03
1B
07
1D
05
1A
19
02
1C
06
17
04
18
09
16
08
15
0A
1D
07
1B
0B
1A
05
1E
04
19
09
18
06
01
02
1D
05
19
03
1B
06
07
1E
04
1A
09
1C
08
17
0A
18
0B
16
03
19
05
15
06
1B
02
1C
07
17
08
1A
1F
1E
03
1B
07
1D
05
1A
19
02
1C
06
17
04
18
09
16
08
15
0A
1D
07
1B
0B
1A
05
1E
04
19
09
18
06
01
02
1D
05
19
03
1B
06
07
1E
04
1A
09
1C
08
17
0A
18
0B
16
03
19
05
15
06
1B
02
1C
07
17
08
1A
1F
1E
03
1B
07
1D
05
1A
19
02
1C
06
17
04
18
09
16
08
15
0A
1D
07
1B
0B
1A
05
1E
04
19
09
18
06
01
02
1D
05
19
03
1B
06
07
1E
04
1A
09
1C
08
17
0A
18
0B
16
03
19
05
15
06
1B
02
1C
07
17
08
1A
1F
1E
03
1B
07
1D
05
1A
19
02
1C
06
17
04
18
09
16
08
15
0A
1D
07
1B
0B
1A
05
1E
04
19
09
18
06
01
02
1D
05
19
03
1B
06
07
1E
04
1A
09
1C
08
17
0A
18
0B
16
03
19
05
15
06
1B
02
1C
07
17
08
1A
1F
1E
03
1B
07
1D
05
1A
19
02
1C
06
17
04
18
09
16
08
15
0A
1D
07
1B
0B
1A
05
1E
04
19
09
18
06
01
02
1D
05
19
03
1B
06
07
1E
04
1A
09
1C
08
17
0A
18
0B
16
03
19
05
15
06
1B
02
1C
07
17
08
1A
1F
1E
03
1B
07
1D
05
1A
19
02
1C
06
17
04
18
09
16
08
15
0A
1D
07
1B
0B
1A
05
1E
04
19
09
18
06
01
02
1D
05
19
03
1B
06
07
1E
04
1A
09
1C
08
17
0A
18
0B
16
03
19
05
15
06
1B
02
1C
07
17
08
1A
1F
1E
03
1B
07
1D
05
1A
19
02
1C
06
17
04
18
09
16
08
15
0A
1D
07
1B
0B
1A
05
1E
04
19
09
18
06
01
02
1D
05
19
03
1B
06
07
1E
04
1A
09
1C
08
17
0A
18
0B
16
03
19
05
15
06
1B
02
1C
07
17
08
1A
1F
1E
03
1B
07
1D
05
1A
19
02
1C
06
17
04
18
09
16
08
15
0A
1D
07
1B
0B
1A
05
1E
04
19
09
18
06
01
02
1D
05
19
03
1B
06
07
1E
04
1A
09
1C
08
17
0A
18
0B
16
03
19
05
15
06
1B
02
1C
07
17
08
1A
1F
1E
03
1B
07
1D
05
1A
19
02
1C
06
17
04
18
09
16
08
15
0A
1D
07
1B
0B
1A
05
1E
04
19
09
18
06
01
02
1D
05
19
03
1B
06
07
1E
04
1A
09
1C
08
17
0A
18
0B
16
03
19
05
15
06
1B
02
1C
07
17
08
1A
1F
1E
03
1B
07
1D
05
1A
19
02
1C
06
17
04
18
09
16
08
15
0A
1D
07
1B
0B
1A
05
1E
04
19
09
18
06
01
02
1D
05
19
03
1B
06
07
1E
04
1A
09
1C
08
17
0A
18
0B
16
03
19
05
15
06
1B
02
1C
07
17
08
1A
1F
1E
03
1B
07
1D
05
1A
19
02
1C
06
17
04
18
09
16
08
15
0A
1D
07
1B
0B
1A
05
1E
04
19
09
18
06
01
02
1D
05
19
03
1B
06
07
1E
04
1A
09
1C
08
17
0A
18
0B
16
03
19
05
15
06
1B
02
1C
07
17
08
1A
1F
1E
03
1B
07
1D
05
1A
19
02
1C
06
17
04
18
09
16
08
15
0A
1D
07
1B
0B
1A
05
1E
04
19
09
18
06
01
02
1D
05
19
03
1B
06
07
1E
04
1A
09
1C
08
17
0A
18
0B
16
03
19
05
15
06
1B
02
1C
07
17
08
1A
1F
1E
03
1B
07
1D
05
1A
19
02
1C
06
17
04
18
09
16
08
15
0A
1D
07
1B
0B
1A
05
1E
04
19
09
18
06
01
02
1D
05
19
03
1B
06
07
1E
04
1A
09
1C
08
17
0A
18
0B
16
03
19
05
15
06
1B
02
1C
07
17
08
1A
1F
1E
03
1B
07
1D
05
1A
19
02
1C
06
17
04
18
09
16
08
15
0A
1D
07
1B
0B
1A
05
1E
04
19
09
18
06
01
02
1D
05
19
03
1B
06
07
1E
04
1A
09
1C
08
17
0A
18
0B
16
03
19
05
15
06
1B
02
1C
07
17
08
1A
1F
1E
03
1B
07
1D
05
1A
19
02
1C
06
17
04
18
09
16
08
15
0A
1D
07
1B
0B
1A
05
1E
04
19
09
18
06
01
02
1D
05
19
03
1B
06
07
1E
04
1A
09
1C
08
17
0A
18
0B
16
03
19
05
15
06
1B
02
1C
07
17
08
1A
1F
1E
03
1B
07
1D
05
1A
19
02
1C
06
17
04
18
09
16
08
15
0A
1D
07
1B
0B
1A
05
1E
04
19
09
18
06
01
02
1D
05
19
03
1B
06
07
1E
04
1A
09
1C
08
17
0A
18
0B
16
03
19
05
15
06
1B
02
1C
07
17
08
1A
1F
1E
03
1B
07
1D
05
1A
19
02
1C
06
17
04
18
09
16
08
15
0A
1D
07
1B
0B
1A
05
1E
04
19
09
18
06
01
02
1D
05
19
03
1B
06
07
1E
04
1A
09
1C
08
17
0A
18
0B
16
03
19
05
15
06
1B
02
1C
07
17
08
1A
1F
1E
03
1B
07
1D
05
1A
19
02
1C
06
17
04
18
09
16
08
15
0A
1D
07
1B
0B
1A
05
1E
04
19
09
18
06
01
02
1D
05
19
03
1B
06
07
1E
04
1A
09
1C
08
17
0A
18
0B
16
03
19
05
15
06
1B
02
1C
07
17
08
1A
1F
1E
03
1B
07
1D
05
1A
19
02
1C
06
17
04
18
09
16
08
15
0A
1D
07
1B
0B
1A
05
1E
04
19
09
18
06
01
02
1D
05
19
03
1B
06
07
1E
04
1A
09
1C
08
17
0A
18
0B
16
03
19
05
15
06
1B
02
1C
07
17
08
1A
1F
1E
03
1B
07
1D
05
1A
19
02
1C
06
17
04
18
09
16
08
15
0A
1D
07
1B
0B
1A
05
1E
04
19
09
18
06
01
02
1D
05
19
03
1B
06
07
1E
04
1A
09
1C
08
17
0A
18
0B
16
03
19
05
15
06
1B
02
1C
07
17
08
1A
1F
1E
03
1B
07
1D
05
1A
19
02
1C
06
17
04
18
09
16
08
15
0A
1D
07
1B
0B
1A
05
1E
04
19
09
18
06
01
02
1D
05
19
03
1B
06
07
1E
04
1A
09
1C
08
17
0A
18
0B
16
03
19
05
15
06
1B
02
1C
07
17
08
1A
1F
1E
03
1B
07
1D
05
1A
19
02
1C
06
17
04
18
09
16
08
15
0A
1D
07
1B
0B
1A
05
1E
04
19
09
18
06
01
02
1D
05
19
03
1B
06
07
1E
04
1A
09
1C
08
17
0A
18
0B
16
03
19
05
15
06
1B
02
1C
07
17
08
1A
1F
1E
03
1B
07
1D
05
1A
19
02
1C
06
17
04
18
09
16
08
15
0A
1D
07
1B
0B
1A
05
1E
04
19
09
18
06
01
02
1D
05
19
03
1B
06
07
1E
04
1A
09
1C
08
17
0A
18
0B
16
03
19
05
15
06
1B
02
1C
07
17
08
1A
1F
1E
03
1B
07
1D
05
1A
19
02
1C
06
17
04
18
09
16
08
15
0A
1D
07
1B
0B
1A
05
1E
04
19
09
18
06
01
02
1D
05
19
03
1B
06
07
1E
04
1A
09
1C
08
17
0A
18
0B
16
03
19
05
15
06
1B
02
1C
07
17
08
1A
1F
1E
03
1B
07
1D
05
1A
19
02
1C
06
17
04
18
09
16
08
15
0A
1D
07
1B
0B
1A
05
1E
04
19
09
18
06
01
02
1D
05
19
03
1B
06
07
1E
04
1A
09
1C
08
17
0A
18
0B
16
03
19
05
15
06
1B
02
1C
07
17
08
1A
1F
1E
03
1B
07
1D
05
1A
19
02
1C
06
17
04
18
09
16
08
15
0A
1D
07
1B
0B
1A
05
1E
04
19
09
18
06
01
02
1D
05
19
03
1B
06
07
1E
04
1A
09
1C
08
17
0A
18
0B
16
03
19
05
15
06
1B
02
1C
07
17
08
1A
1F
1E
03
1B
07
1D
05
1A
19
02
1C
06
17
04
18
09
16
08
15
0A
1D
07
1B
0B
1A
05
1E
04
19
09
18
06
01
02
1D
05
19
03
1B
06
07
1E
04
1A
09
1C
08
17
0A
18
0B
16
03
19
05
15
06
1B
02
1C
07
17
08
1A
1F
1E
03
1B
07
1D
05
1A
19
02
1C
06
17
04
18
09
16
08
15
0A
1D
07
1B
0B
1A
05
1E
04
19
09
18
06
01
02
1D
05
19
03
1B
06
07
1E
04
1A
09
1C
08
17
0A
18
0B
16
03
19
05
15
06
1B
02
1C
07
17
08
1A
1F
1E
03
1B
07
1D
05
1A
19
02
1C
06
17
04
18
09
16
08
15
0A
1D
07
1B
0B
1A
05
1E
04
19
09
18
06
01
02
1D
05
19
03
1B
06
07
1E
04
1A
09
1C
08
17
0A
18
0B
16
03
19
05
15
06
1B
02
1C
07
17
08
1A
1F
1E
03
1B
07
1D
05
1A
19
02
1C
06
17
04
18
09
16
08
15
0A
1D
07
1B
0B
1A
05
1E
04
19
09
18
06
01
02
1D
05
19
03
1B
06
07
1E
04
1A
09
1C
08
17
0A
18
0B
16
03
19
05
15
06
1B
02
1C
07
17
08
1A
1F
1E
03
1B
07
1D
05
1A
19
02
1C
06
17
04
18
09
16
08
15
0A
1D
07
1B
0B
1A
05
1E
04
19
09
18
06
01
02
1D
05
19
03
1B
06
07
1E
04
1A
09
1C
08
17
0A
18
0B
16
03
19
05
15
06
1B
02
1C
07
17
08
1A
1F
1E
03
1B
07
1D
05
1A
19
02
1C
06
17
04
18
09
16
08
15
0A
1D
07
1B
0B
1A
05
1E
04
19
09
18
06
01
02
1D
05
19
03
1B
06
07
1E
04
1A
09
1C
08
17
0A
18
0B
16
03
19
05
15
06
1B
02
1C
07
17
08
1A
1F
1E
03
1B
07
1D
05
1A
19
02
1C
06
17
04
18
09
16
08
15
0A
1D
07
1B
0B
1A
05
1E
04
19
09
18
06
01
02
1D
05
19
03
1B
06
07
1E
04
1A
09
1C
08
17
0A
18
0B
16
03
19
05
15
06
1B
02
1C
07
17
08
1A
1F
1E
03
1B
07
1D
05
1A
19
02
1C
06
17
04
18
09
16
08
15
0A
1D
07
1B
0B
1A
05
1E
04
19
09
18
06
01
02
1D
05
19
03
1B
06
07
1E
04
1A
09
1C
08
17
0A
18
0B
16
03
19
05
15
06
1B
02
1C
07
17
08
1A
1F
1E
03
1B
07
1D
05
1A
19
02
1C
06
17
04
18
09
16
08
15
0A
1D
07
1B
0B
1A
05
1E
04
19
09
18
06
01
02
1D
05
19
03
1B
06
07
1E
04
1A
09
1C
08
17
0A
18
0B
16
03
19
05
15
06
1B
02
1C
07
17
08
1A
1F
1E
03
1B
07
1D
05
1A
19
02
1C
06
17
04
18
09
16
08
15
0A
1D
07
1B
0B
1A
05
1E
04
19
09
18
06
01
02
1D
05
19
03
1B
06
07
1E
04
1A
09
1C
08
17
0A
18
0B
16
03
19
05
15
06
1B
02
1C
07
17
08
1A
1F
1E
03
1B
07
1D
05
1A
19
02
1C
06
17
04
18
09
16
08
15
0A
1D
07
1B
0B
1A
05
1E
04
19
09
18
06

