01
02
1D
05
19
03
1B
06
07
1E
04
1A
09
1C
08
17
0A
18
0B
16
03
19
05
15
06
1B
02
1C
07
17
08
1A
01
02
1D
05
19
03
1B
06
07
1E
04
1A
09
1C
08
17
0A
18
0B
16
03
19
05
15
06
1B
02
1C
07
17
08
1A
01
02
1D
05
19
03
1B
06
07
1E
04
1A
09
1C
08
17
0A
18
0B
16
03
19
05
15
06
1B
02
1C
07
17
08
1A
01
02
1D
05
19
03
1B
06
07
1E
04
1A
09
1C
08
17
0A
18
0B
16
03
19
05
15
06
1B
02
1C
07
17
08
1A
01
02
1D
05
19
03
1B
06
07
1E
04
1A
09
1C
08
17
0A
18
0B
16
03
19
05
15
06
1B
02
1C
07
17
08
1A
01
02
1D
05
19
03
1B
06
07
1E
04
1A
09
1C
08
17
0A
18
0B
16
03
19
05
15
06
1B
02
1C
07
17
08
1A
01
02
1D
05
19
03
1B
06
07
1E
04
1A
09
1C
08
17
0A
18
0B
16
03
19
05
15
06
1B
02
1C
07
17
08
1A
01
02
1D
05
19
03
1B
06
07
1E
04
1A
09
1C
08
17
0A
18
0B
16
03
19
05
15
06
1B
02
1C
07
17
08
1A
01
02
1D
05
19
03
1B
06
07
1E
04
1A
09
1C
08
17
0A
18
0B
16
03
19
05
15
06
1B
02
1C
07
17
08
1A

