1F
1E
03
1B
07
1D
05
1A
19
02
1C
06
17
04
18
09
1F
1E
03
1B
07
1D
05
1A
19
02
1C
06
17
04
18
09
1F
1E
03
1B
07
1D
05
1A
19
02
1C
06
17
04
18
09
1F
1E
03
1B
07
1D
05
1A
19
02
1C
06
17
04
18
09
1F
1E
03
1B
07
1D
05
1A
19
02
1C
06
17
04
18
09
1F
1E
03
1B
07
1D
05
1A
19
02
1C
06
17
04
18
09
1F
1E
03
1B
07
1D
05
1A
19
02
1C
06
17
04
18
09
1F
1E
03
1B
07
1D
05
1A
19
02
1C
06
17
04
18
09
1F
1E
03
1B
07
1D
05
1A
19
02
1C
06
17
04
18
09

